const unsigned char model[] = {
  0x1c, 0x00, 0x00, 0x00, 0x54, 0x46, 0x4c, 0x33, 0x14, 0x00, 0x20, 0x00,
  0x1c, 0x00, 0x18, 0x00, 0x14, 0x00, 0x10, 0x00, 0x0c, 0x00, 0x00, 0x00,
  0x08, 0x00, 0x04, 0x00, 0x14, 0x00, 0x00, 0x00, 0x1c, 0x00, 0x00, 0x00,
  0x98, 0x00, 0x00, 0x00, 0xf0, 0x00, 0x00, 0x00, 0xa0, 0x0c, 0x00, 0x00,
  0xb0, 0x0c, 0x00, 0x00, 0x90, 0x18, 0x00, 0x00, 0x03, 0x00, 0x00, 0x00,
  0x01, 0x00, 0x00, 0x00, 0x10, 0x00, 0x00, 0x00, 0x00, 0x00, 0x0a, 0x00,
  0x10, 0x00, 0x0c, 0x00, 0x08, 0x00, 0x04, 0x00, 0x0a, 0x00, 0x00, 0x00,
  0x0c, 0x00, 0x00, 0x00, 0x1c, 0x00, 0x00, 0x00, 0x3c, 0x00, 0x00, 0x00,
  0x0f, 0x00, 0x00, 0x00, 0x73, 0x65, 0x72, 0x76, 0x69, 0x6e, 0x67, 0x5f,
  0x64, 0x65, 0x66, 0x61, 0x75, 0x6c, 0x74, 0x00, 0x01, 0x00, 0x00, 0x00,
  0x04, 0x00, 0x00, 0x00, 0x90, 0xff, 0xff, 0xff, 0x14, 0x00, 0x00, 0x00,
  0x04, 0x00, 0x00, 0x00, 0x08, 0x00, 0x00, 0x00, 0x6f, 0x75, 0x74, 0x70,
  0x75, 0x74, 0x5f, 0x30, 0x00, 0x00, 0x00, 0x00, 0x01, 0x00, 0x00, 0x00,
  0x04, 0x00, 0x00, 0x00, 0x42, 0xf3, 0xff, 0xff, 0x04, 0x00, 0x00, 0x00,
  0x0c, 0x00, 0x00, 0x00, 0x6b, 0x65, 0x72, 0x61, 0x73, 0x5f, 0x74, 0x65,
  0x6e, 0x73, 0x6f, 0x72, 0x00, 0x00, 0x00, 0x00, 0x02, 0x00, 0x00, 0x00,
  0x34, 0x00, 0x00, 0x00, 0x04, 0x00, 0x00, 0x00, 0xdc, 0xff, 0xff, 0xff,
  0x17, 0x00, 0x00, 0x00, 0x04, 0x00, 0x00, 0x00, 0x13, 0x00, 0x00, 0x00,
  0x43, 0x4f, 0x4e, 0x56, 0x45, 0x52, 0x53, 0x49, 0x4f, 0x4e, 0x5f, 0x4d,
  0x45, 0x54, 0x41, 0x44, 0x41, 0x54, 0x41, 0x00, 0x08, 0x00, 0x0c, 0x00,
  0x08, 0x00, 0x04, 0x00, 0x08, 0x00, 0x00, 0x00, 0x16, 0x00, 0x00, 0x00,
  0x04, 0x00, 0x00, 0x00, 0x13, 0x00, 0x00, 0x00, 0x6d, 0x69, 0x6e, 0x5f,
  0x72, 0x75, 0x6e, 0x74, 0x69, 0x6d, 0x65, 0x5f, 0x76, 0x65, 0x72, 0x73,
  0x69, 0x6f, 0x6e, 0x00, 0x18, 0x00, 0x00, 0x00, 0xac, 0x0b, 0x00, 0x00,
  0xa4, 0x0b, 0x00, 0x00, 0x54, 0x0b, 0x00, 0x00, 0x44, 0x09, 0x00, 0x00,
  0x14, 0x08, 0x00, 0x00, 0x04, 0x07, 0x00, 0x00, 0xf4, 0x02, 0x00, 0x00,
  0xa4, 0x02, 0x00, 0x00, 0x84, 0x02, 0x00, 0x00, 0x6c, 0x02, 0x00, 0x00,
  0x3c, 0x02, 0x00, 0x00, 0x0c, 0x01, 0x00, 0x00, 0xdc, 0x00, 0x00, 0x00,
  0xd4, 0x00, 0x00, 0x00, 0xcc, 0x00, 0x00, 0x00, 0xc4, 0x00, 0x00, 0x00,
  0xbc, 0x00, 0x00, 0x00, 0xb4, 0x00, 0x00, 0x00, 0xac, 0x00, 0x00, 0x00,
  0xa4, 0x00, 0x00, 0x00, 0x9c, 0x00, 0x00, 0x00, 0x94, 0x00, 0x00, 0x00,
  0x74, 0x00, 0x00, 0x00, 0x04, 0x00, 0x00, 0x00, 0x1e, 0xf4, 0xff, 0xff,
  0x04, 0x00, 0x00, 0x00, 0x60, 0x00, 0x00, 0x00, 0x10, 0x00, 0x00, 0x00,
  0x00, 0x00, 0x00, 0x00, 0x08, 0x00, 0x0e, 0x00, 0x08, 0x00, 0x04, 0x00,
  0x08, 0x00, 0x00, 0x00, 0x10, 0x00, 0x00, 0x00, 0x24, 0x00, 0x00, 0x00,
  0x00, 0x00, 0x06, 0x00, 0x08, 0x00, 0x04, 0x00, 0x06, 0x00, 0x00, 0x00,
  0x04, 0x00, 0x00, 0x00, 0x00, 0x00, 0x00, 0x00, 0x0c, 0x00, 0x18, 0x00,
  0x14, 0x00, 0x10, 0x00, 0x0c, 0x00, 0x04, 0x00, 0x0c, 0x00, 0x00, 0x00,
  0x73, 0xb4, 0x6b, 0xa2, 0x31, 0x96, 0xcc, 0x4a, 0x02, 0x00, 0x00, 0x00,
  0x02, 0x00, 0x00, 0x00, 0x04, 0x00, 0x00, 0x00, 0x06, 0x00, 0x00, 0x00,
  0x32, 0x2e, 0x31, 0x39, 0x2e, 0x30, 0x00, 0x00, 0x8a, 0xf4, 0xff, 0xff,
  0x04, 0x00, 0x00, 0x00, 0x10, 0x00, 0x00, 0x00, 0x31, 0x2e, 0x36, 0x2e,
  0x30, 0x00, 0x00, 0x00, 0x00, 0x00, 0x00, 0x00, 0x00, 0x00, 0x00, 0x00,
  0x80, 0xe9, 0xff, 0xff, 0x84, 0xe9, 0xff, 0xff, 0x88, 0xe9, 0xff, 0xff,
  0x8c, 0xe9, 0xff, 0xff, 0x90, 0xe9, 0xff, 0xff, 0x94, 0xe9, 0xff, 0xff,
  0x98, 0xe9, 0xff, 0xff, 0x9c, 0xe9, 0xff, 0xff, 0xa0, 0xe9, 0xff, 0xff,
  0xca, 0xf4, 0xff, 0xff, 0x04, 0x00, 0x00, 0x00, 0x20, 0x00, 0x00, 0x00,
  0xc5, 0x84, 0xdc, 0x3b, 0x06, 0x3c, 0x43, 0x3e, 0x4e, 0xe5, 0x28, 0x3e,
  0x53, 0x6e, 0x56, 0xbd, 0xe0, 0x93, 0x35, 0x3b, 0xfc, 0x47, 0x1b, 0x3d,
  0x54, 0x22, 0x1b, 0x3e, 0x03, 0x8a, 0xd5, 0x3d, 0xf6, 0xf4, 0xff, 0xff,
  0x04, 0x00, 0x00, 0x00, 0x20, 0x01, 0x00, 0x00, 0xf5, 0x4f, 0x23, 0xbe,
  0xb0, 0x93, 0x99, 0x3e, 0x6e, 0x27, 0xdd, 0x3c, 0x22, 0x2d, 0x87, 0x3e,
  0xdc, 0x93, 0x38, 0x3e, 0xee, 0x24, 0x9f, 0x3e, 0x50, 0xce, 0x0a, 0x3e,
  0xe8, 0x53, 0x50, 0x3d, 0x34, 0xcc, 0x91, 0x3e, 0x98, 0xa1, 0x02, 0x3e,
  0x09, 0x9f, 0xcc, 0xbd, 0x00, 0x47, 0x2e, 0xbf, 0xc0, 0xfb, 0xfe, 0x3d,
  0xc0, 0x5d, 0x24, 0x3e, 0x24, 0xc2, 0x10, 0xbf, 0x2d, 0x49, 0x13, 0x3e,
  0x75, 0x8e, 0xbf, 0xbd, 0x34, 0x56, 0x13, 0xbf, 0xf0, 0x4c, 0x58, 0xbe,
  0x3b, 0xd0, 0x5c, 0xbe, 0x23, 0x5a, 0xfa, 0x3e, 0xb3, 0x43, 0x7d, 0x3d,
  0xbc, 0xc8, 0x88, 0x3b, 0x08, 0xcd, 0xdf, 0x3e, 0xe9, 0xe7, 0x12, 0x3e,
  0x3c, 0xfa, 0xd1, 0xbe, 0x6a, 0x39, 0x02, 0x3f, 0x3d, 0x0f, 0xb2, 0x3d,
  0x75, 0xa1, 0xac, 0xbe, 0xe3, 0x24, 0x0e, 0xbf, 0xe9, 0x5e, 0x8d, 0x3d,
  0xaf, 0x3d, 0xb9, 0xbd, 0x36, 0x27, 0x59, 0xbe, 0x8c, 0xb0, 0xb1, 0x3c,
  0xcd, 0x77, 0xb6, 0x3e, 0xc3, 0x6c, 0xa8, 0xbe, 0x6e, 0xac, 0x40, 0xbe,
  0xa3, 0xf5, 0x1f, 0x3e, 0x2b, 0x02, 0xb8, 0xbd, 0xe0, 0x12, 0x97, 0x3c,
  0xaa, 0xf3, 0x68, 0x3e, 0x75, 0xc8, 0xbe, 0x3e, 0x03, 0xfc, 0xca, 0xbe,
  0xd8, 0xe5, 0x41, 0xbe, 0xff, 0x6f, 0x98, 0xbc, 0x94, 0x3e, 0x57, 0x3e,
  0xb9, 0x7e, 0x93, 0x3e, 0x85, 0xbe, 0x03, 0x3f, 0xeb, 0x52, 0x66, 0xbc,
  0x71, 0xe2, 0x0c, 0xbe, 0x9d, 0x24, 0x2b, 0xbe, 0x55, 0x00, 0x3d, 0xbc,
  0x05, 0x33, 0x27, 0x3c, 0xa3, 0x51, 0x5d, 0xbe, 0x95, 0x72, 0xd6, 0xbe,
  0xa1, 0x1a, 0x0e, 0xbe, 0x05, 0x26, 0x9c, 0xbe, 0x26, 0x1f, 0x3f, 0xbe,
  0xe3, 0xee, 0x0e, 0x3e, 0x76, 0x95, 0xda, 0x3d, 0x98, 0x5b, 0x8c, 0xbe,
  0x45, 0x26, 0xe9, 0xbd, 0x92, 0x40, 0xca, 0xbe, 0x52, 0x20, 0x06, 0x3e,
  0x8c, 0xed, 0x93, 0x3e, 0xb9, 0xaf, 0x52, 0x3e, 0x7a, 0x91, 0x95, 0x3e,
  0xe9, 0xad, 0x5d, 0x3c, 0x10, 0xf1, 0xc7, 0x3d, 0x30, 0xf2, 0x5e, 0xbe,
  0xc0, 0x5e, 0x47, 0xbe, 0x90, 0x83, 0xa3, 0x3c, 0x22, 0xf6, 0xff, 0xff,
  0x04, 0x00, 0x00, 0x00, 0x20, 0x00, 0x00, 0x00, 0x00, 0x00, 0x00, 0x00,
  0x00, 0x00, 0x00, 0x00, 0x00, 0x00, 0x00, 0x00, 0x00, 0x00, 0x00, 0x00,
  0x00, 0x00, 0x00, 0x00, 0x00, 0x00, 0x00, 0x00, 0x00, 0x00, 0x00, 0x00,
  0x00, 0x00, 0x00, 0x00, 0x4e, 0xf6, 0xff, 0xff, 0x04, 0x00, 0x00, 0x00,
  0x08, 0x00, 0x00, 0x00, 0x01, 0x00, 0x00, 0x00, 0x02, 0x00, 0x00, 0x00,
  0x62, 0xf6, 0xff, 0xff, 0x04, 0x00, 0x00, 0x00, 0x10, 0x00, 0x00, 0x00,
  0x5d, 0x0d, 0x81, 0xbe, 0x03, 0xaa, 0x7a, 0x3e, 0x52, 0xa7, 0x40, 0xbe,
  0xf7, 0x90, 0x3d, 0x3d, 0x7e, 0xf6, 0xff, 0xff, 0x04, 0x00, 0x00, 0x00,
  0x40, 0x00, 0x00, 0x00, 0x00, 0x00, 0x00, 0x00, 0x00, 0x00, 0x00, 0x00,
  0x72, 0xf8, 0xe1, 0xbc, 0x6b, 0x86, 0xb9, 0xbc, 0x17, 0xa4, 0x55, 0x3c,
  0xcc, 0x54, 0x7d, 0xbd, 0xc3, 0x2e, 0x35, 0x3d, 0x00, 0x00, 0x00, 0x00,
  0x62, 0xc1, 0x1c, 0xbd, 0x95, 0x96, 0xc6, 0xbd, 0x24, 0x0d, 0x32, 0xbd,
  0x67, 0xd0, 0x13, 0xbe, 0xe3, 0xec, 0x14, 0x3e, 0x41, 0x37, 0x84, 0xbc,
  0xfc, 0x0a, 0x2e, 0xbc, 0x66, 0x53, 0xff, 0xbd, 0xca, 0xf6, 0xff, 0xff,
  0x04, 0x00, 0x00, 0x00, 0x00, 0x04, 0x00, 0x00, 0x9d, 0x87, 0x89, 0xbe,
  0xc4, 0xd2, 0x2a, 0xbe, 0xb8, 0x8d, 0x17, 0xbe, 0x70, 0x3d, 0x2c, 0xbe,
  0x8e, 0x2a, 0x12, 0x3e, 0x43, 0x07, 0x49, 0xbe, 0x28, 0x28, 0x66, 0xbd,
  0x9a, 0xdb, 0xb7, 0xbe, 0xf2, 0xc7, 0x25, 0x3e, 0xb8, 0xa1, 0x10, 0x3d,
  0xff, 0xd4, 0xc9, 0xbe, 0x24, 0xef, 0xc5, 0x3d, 0x26, 0x1d, 0x7b, 0x3e,
  0x8f, 0x1c, 0xa7, 0x3e, 0xe8, 0xf7, 0xa2, 0xbd, 0x84, 0xc1, 0xa3, 0xbe,
  0xa8, 0xb5, 0xf9, 0xbd, 0x80, 0x1f, 0xab, 0xbe, 0x28, 0x82, 0xaf, 0xbd,
  0x57, 0x81, 0xd8, 0xbe, 0x38, 0xa1, 0xcd, 0xbe, 0x19, 0x0b, 0x99, 0xbe,
  0xc3, 0x04, 0xd1, 0x3e, 0xe6, 0x7b, 0x4d, 0xbe, 0xc5, 0xa1, 0xa3, 0x3e,
  0x28, 0xa0, 0x1d, 0xbe, 0xde, 0x2b, 0xc7, 0xbe, 0x5f, 0x11, 0xd1, 0x3e,
  0x75, 0x82, 0x9e, 0x3e, 0xcc, 0xf6, 0x9a, 0x3d, 0xc4, 0x7d, 0x9e, 0x3d,
  0xbc, 0x5e, 0xb4, 0xbd, 0xbe, 0x39, 0x96, 0xbe, 0xca, 0x9a, 0x63, 0x3e,
  0x2f, 0xbf, 0x00, 0xbe, 0x4e, 0xe2, 0xea, 0x3d, 0x53, 0xe7, 0xd7, 0xbe,
  0xb0, 0xd1, 0xe9, 0xbe, 0x9e, 0x53, 0xb7, 0x3e, 0xfb, 0x96, 0xe1, 0xbb,
  0x2b, 0x55, 0x2c, 0xbc, 0x11, 0xad, 0x62, 0x3c, 0xbc, 0xdb, 0x43, 0x3e,
  0xf2, 0x59, 0x9c, 0x3d, 0xf6, 0x21, 0xbf, 0x3d, 0x32, 0x0c, 0x09, 0x3e,
  0x0b, 0x8b, 0xee, 0x3d, 0x87, 0x29, 0x6d, 0x3e, 0x40, 0xd1, 0x23, 0xbe,
  0xb5, 0x5b, 0xcd, 0xbd, 0xa5, 0x3a, 0xb6, 0xbe, 0x7d, 0xf0, 0x8a, 0xbe,
  0x3a, 0x90, 0xae, 0x3c, 0x10, 0x37, 0x31, 0x3d, 0x04, 0xda, 0x32, 0x3e,
  0xd0, 0x96, 0xb7, 0x3e, 0xf8, 0x03, 0xec, 0xbe, 0x7e, 0x4a, 0x78, 0x3e,
  0xc6, 0x6f, 0x85, 0xba, 0x77, 0xf2, 0x62, 0xbe, 0x3c, 0xfa, 0x8e, 0xbd,
  0x05, 0x12, 0xbc, 0x3e, 0x36, 0x1a, 0xec, 0xbd, 0x3f, 0xda, 0x47, 0x3d,
  0x26, 0xfa, 0x91, 0xbe, 0x09, 0xde, 0x96, 0x3e, 0xfa, 0xbd, 0x59, 0x3e,
  0xab, 0xee, 0x96, 0x3e, 0xcb, 0x85, 0x76, 0x3e, 0x24, 0x5d, 0x5b, 0x3e,
  0xd3, 0x5c, 0x5e, 0x3d, 0x4a, 0x24, 0xf9, 0xbb, 0x42, 0x26, 0x55, 0xbd,
  0xd6, 0x6b, 0x16, 0xbe, 0xaa, 0x43, 0x73, 0x3e, 0xf9, 0xad, 0x3c, 0xbe,
  0xbb, 0xa1, 0x5a, 0x3e, 0xb3, 0xf6, 0xa4, 0xbc, 0x46, 0x9b, 0x04, 0xbf,
  0x14, 0x87, 0xb7, 0x3d, 0xfa, 0xbe, 0x8f, 0xbe, 0x2e, 0xa2, 0x9f, 0x3e,
  0xd8, 0x09, 0x1c, 0xbe, 0x0d, 0x66, 0xc2, 0x3e, 0xe8, 0x12, 0x90, 0xbe,
  0x52, 0x2f, 0x8a, 0xbe, 0x15, 0x8c, 0xf5, 0xbd, 0xf8, 0xd5, 0x32, 0x3c,
  0x01, 0x82, 0xc0, 0x3e, 0x2b, 0x13, 0x98, 0x3e, 0x05, 0x75, 0xa0, 0x3e,
  0x98, 0xd6, 0xa3, 0xbe, 0xaf, 0x3b, 0xa4, 0x3e, 0x63, 0x5e, 0xff, 0x3e,
  0x83, 0x56, 0xa1, 0xbe, 0x89, 0x0d, 0xdd, 0x3d, 0x12, 0x1e, 0x72, 0xbe,
  0xd0, 0xbb, 0xe6, 0x3d, 0x11, 0x22, 0xd0, 0x3e, 0x0e, 0x98, 0x9e, 0x3e,
  0xcc, 0xca, 0xf7, 0xbd, 0xaf, 0xef, 0x62, 0xbe, 0xa9, 0xcd, 0x91, 0x3e,
  0x29, 0x9a, 0x7d, 0x3e, 0x77, 0x91, 0xdd, 0x3e, 0xa8, 0xd3, 0xdb, 0xbe,
  0xaa, 0x7d, 0x73, 0xbe, 0xac, 0x3f, 0x0d, 0xbd, 0x27, 0x73, 0x0f, 0xbf,
  0xde, 0x01, 0xd5, 0xbe, 0x77, 0x21, 0xe8, 0x3d, 0x36, 0x74, 0x14, 0x3e,
  0x20, 0x7f, 0xb8, 0xbd, 0x80, 0xc9, 0x0f, 0xbb, 0x04, 0xf0, 0xb6, 0x3d,
  0x98, 0xa6, 0x27, 0x3d, 0x4b, 0x86, 0x9d, 0x3e, 0xc8, 0xd9, 0x6b, 0x3d,
  0x58, 0x23, 0x90, 0xbd, 0xee, 0x20, 0x3a, 0xbe, 0xb0, 0x16, 0x02, 0x3d,
  0x1b, 0x76, 0xd2, 0xbe, 0x1a, 0xbd, 0x59, 0x3e, 0xe6, 0xc4, 0x34, 0x3e,
  0x92, 0x91, 0x74, 0x3e, 0x80, 0x0b, 0xd1, 0xbd, 0x02, 0x5d, 0x9a, 0xbe,
  0xb7, 0xcc, 0xd6, 0xbe, 0xc5, 0x7d, 0x82, 0x3e, 0x93, 0xd9, 0x81, 0xbe,
  0x42, 0x0b, 0xce, 0xbd, 0x52, 0x42, 0xc3, 0xbe, 0xd0, 0x4d, 0x77, 0x3e,
  0xf5, 0x57, 0x47, 0x3e, 0xe2, 0x76, 0x1b, 0x3e, 0x85, 0x88, 0xf0, 0x3d,
  0xbb, 0xe3, 0xbb, 0xbe, 0x26, 0xe1, 0x1c, 0x3e, 0x86, 0x9d, 0xa6, 0xbe,
  0x12, 0x74, 0x37, 0xbd, 0xcb, 0xfb, 0x07, 0x3e, 0x6b, 0x0b, 0xa2, 0x3e,
  0xd3, 0x09, 0xba, 0xbe, 0x63, 0x5f, 0x93, 0x3e, 0xf6, 0xc7, 0x36, 0x3e,
  0xb5, 0xc4, 0x17, 0xbf, 0xc0, 0x99, 0x50, 0xbd, 0x48, 0xd1, 0x6b, 0xbe,
  0xb0, 0x38, 0x9c, 0xbe, 0x08, 0xbf, 0xc9, 0x3e, 0x87, 0x21, 0x8e, 0xbe,
  0x27, 0x05, 0x23, 0xbd, 0xe0, 0x86, 0xd0, 0xbd, 0x74, 0xd5, 0xff, 0x3e,
  0x9e, 0xb0, 0x1b, 0xbe, 0xba, 0x83, 0x83, 0xbe, 0x70, 0x3e, 0x0e, 0x3e,
  0xd5, 0xeb, 0xfb, 0x3e, 0x02, 0x0a, 0x52, 0x3e, 0x66, 0x89, 0x71, 0x3e,
  0xd3, 0x87, 0xbc, 0x3e, 0x66, 0xf7, 0xa4, 0xbe, 0xdd, 0xa2, 0x8b, 0x3d,
  0x80, 0xfe, 0xe0, 0xbd, 0x55, 0xe1, 0x8b, 0x3e, 0xab, 0x8c, 0xea, 0xbe,
  0xe7, 0x8d, 0xac, 0xbe, 0x26, 0xdd, 0xa3, 0x3e, 0xdc, 0x7b, 0x62, 0x3c,
  0xf6, 0x3f, 0xa3, 0xbe, 0x6b, 0x81, 0x9f, 0x3e, 0x5e, 0xee, 0x19, 0x3e,
  0x29, 0x3a, 0xd7, 0xbe, 0x31, 0xb1, 0xe0, 0x3e, 0x42, 0xda, 0x4b, 0x3e,
  0x83, 0x33, 0xb6, 0xbe, 0x1c, 0xd4, 0xa2, 0xbd, 0x05, 0xec, 0x3b, 0xbd,
  0xb1, 0x25, 0xaf, 0x3d, 0xfe, 0xb6, 0x38, 0x3d, 0xaa, 0x7e, 0x3a, 0xbc,
  0x10, 0x51, 0x8d, 0xbe, 0xa7, 0x3b, 0x04, 0xbe, 0xba, 0x81, 0x49, 0x3e,
  0x6c, 0xa1, 0x4e, 0xbd, 0xa0, 0x22, 0x9b, 0x3e, 0x35, 0xd3, 0x61, 0x3e,
  0x46, 0x15, 0x34, 0x3e, 0xb7, 0x66, 0x79, 0xbd, 0x6e, 0x86, 0xf7, 0x3e,
  0x4a, 0xac, 0x13, 0xbd, 0x3a, 0x29, 0xa5, 0x3d, 0xf1, 0xeb, 0x89, 0xbe,
  0x44, 0x01, 0x05, 0x3f, 0xb2, 0x34, 0x07, 0x3f, 0x6f, 0x2c, 0xbe, 0x3e,
  0xdd, 0x88, 0x18, 0x3f, 0x3b, 0x5e, 0x33, 0x3d, 0x17, 0xc6, 0x97, 0x3e,
  0x24, 0xd4, 0x32, 0xbe, 0x62, 0xf4, 0x1c, 0xbe, 0x81, 0x1a, 0xbd, 0xbd,
  0x89, 0xbe, 0x75, 0x3e, 0x20, 0x34, 0x18, 0x3c, 0x88, 0xdf, 0xa5, 0xbe,
  0x76, 0xc4, 0xa6, 0xbe, 0x5b, 0x43, 0xe8, 0x3e, 0x0a, 0xc6, 0xb3, 0xbe,
  0x4f, 0x35, 0xdc, 0xbe, 0xb3, 0x0b, 0x66, 0xbd, 0x07, 0x72, 0x6f, 0xbe,
  0x0c, 0xfb, 0x87, 0x3e, 0x8e, 0x9e, 0x56, 0x3d, 0x76, 0x8a, 0xde, 0x3d,
  0x00, 0x06, 0x58, 0x3e, 0x2d, 0xc7, 0xb8, 0x3e, 0x5c, 0xd9, 0xab, 0xbe,
  0x5e, 0x23, 0x62, 0xbe, 0xd4, 0x3c, 0xcd, 0xbe, 0x40, 0x9a, 0xa9, 0x3d,
  0x78, 0x0a, 0xb3, 0x3e, 0x58, 0x03, 0x96, 0x3d, 0x93, 0x62, 0x3d, 0xbe,
  0xbf, 0x43, 0x83, 0xbd, 0xbe, 0x8c, 0x32, 0xbe, 0xea, 0x40, 0xad, 0x3e,
  0xc1, 0x9a, 0xa4, 0x3e, 0x2d, 0xa3, 0x25, 0x3e, 0x51, 0x3f, 0xaf, 0xbe,
  0x3e, 0x31, 0x12, 0xbe, 0x3f, 0x8f, 0xbd, 0xbe, 0xb9, 0xe3, 0x9e, 0x3e,
  0xb8, 0xa4, 0xf2, 0xbd, 0xb4, 0xe5, 0x92, 0xbe, 0x9b, 0xe2, 0x4f, 0xbd,
  0xfe, 0xf0, 0x9b, 0xbd, 0x36, 0xf1, 0x61, 0xbe, 0x6b, 0xfd, 0x11, 0xbe,
  0xb5, 0xc2, 0xd2, 0xbe, 0xe3, 0x25, 0x93, 0xbd, 0x37, 0x36, 0x30, 0xbd,
  0x62, 0x24, 0xa6, 0xbe, 0x8d, 0xa4, 0x00, 0xbe, 0xa5, 0x20, 0x9a, 0xbe,
  0x74, 0x20, 0xc4, 0xbd, 0x9e, 0xae, 0xa3, 0x3e, 0x8a, 0x23, 0x88, 0xbd,
  0xe8, 0xa9, 0x22, 0x3e, 0x54, 0xca, 0x49, 0xbe, 0x96, 0x4c, 0xd7, 0x3e,
  0x2f, 0x20, 0xf0, 0x3e, 0xe0, 0xcf, 0xb7, 0x3e, 0xc5, 0x68, 0x14, 0x3f,
  0xf6, 0x79, 0x6c, 0x3e, 0xc8, 0x55, 0x83, 0xbd, 0x18, 0xf5, 0x4e, 0x3e,
  0xd6, 0xfa, 0xff, 0xff, 0x04, 0x00, 0x00, 0x00, 0x00, 0x01, 0x00, 0x00,
  0x00, 0xa0, 0x37, 0xbb, 0xa0, 0x97, 0x6b, 0x3d, 0xb9, 0xb1, 0x02, 0xbe,
  0x81, 0x61, 0x7a, 0xbe, 0xa1, 0x88, 0x87, 0xbe, 0x80, 0xd1, 0xf9, 0x3e,
  0xbe, 0x4a, 0x51, 0xbf, 0x96, 0xba, 0xbb, 0x3e, 0x6d, 0xfb, 0x85, 0x3e,
  0x50, 0xdd, 0x10, 0x3f, 0xba, 0x66, 0xcc, 0xbe, 0x68, 0xb0, 0xa0, 0xbd,
  0xc7, 0x0f, 0x42, 0xbf, 0x65, 0xdf, 0xce, 0xbe, 0xed, 0x5c, 0x82, 0x3e,
  0x87, 0x67, 0x4a, 0x3d, 0x43, 0xad, 0x83, 0xbe, 0xe0, 0x1e, 0xa8, 0xbe,
  0x2f, 0x82, 0x8e, 0x3e, 0xb9, 0xbd, 0xb2, 0x3e, 0x4f, 0xb2, 0x82, 0xbe,
  0xd6, 0x01, 0x20, 0xbf, 0xa1, 0x03, 0x31, 0x3e, 0x00, 0x6a, 0x38, 0xbd,
  0xc1, 0x67, 0x80, 0x3e, 0xee, 0x28, 0x96, 0xbe, 0x63, 0x5e, 0x10, 0x3f,
  0x45, 0x14, 0x91, 0xbe, 0x80, 0xa4, 0x08, 0x3f, 0x06, 0x31, 0x1b, 0xbe,
  0x9d, 0x04, 0x05, 0xbf, 0xba, 0x34, 0x50, 0xbf, 0xde, 0x7f, 0x06, 0x3f,
  0x52, 0x23, 0x81, 0xbe, 0x2e, 0xd0, 0x54, 0x3e, 0xa6, 0xbc, 0x61, 0xbe,
  0xca, 0x85, 0x7a, 0xbf, 0x10, 0x73, 0x95, 0x3e, 0x61, 0x49, 0x8a, 0xbd,
  0x5a, 0x67, 0xb6, 0xbe, 0x5e, 0x2f, 0x2a, 0xbe, 0xc3, 0x08, 0xf5, 0x3e,
  0xcb, 0x40, 0x19, 0x3f, 0x12, 0x28, 0xec, 0xbc, 0x57, 0x2b, 0x70, 0x3e,
  0x3c, 0xcf, 0x16, 0xbe, 0xf8, 0xf2, 0xaf, 0xbe, 0x21, 0xcd, 0xcd, 0xbc,
  0x20, 0x4c, 0x7e, 0x3d, 0x1c, 0xf0, 0xfb, 0xbd, 0xf1, 0x9e, 0xe2, 0x3d,
  0x5e, 0x33, 0x89, 0x3e, 0xaf, 0xa5, 0xcc, 0x3e, 0x07, 0xed, 0x40, 0x3e,
  0x2a, 0x71, 0x6b, 0x3d, 0x08, 0xa3, 0xea, 0xbd, 0x11, 0xeb, 0xfd, 0xbe,
  0x79, 0x0d, 0x24, 0xbf, 0x75, 0x99, 0xa0, 0xbe, 0x91, 0xa4, 0xf4, 0xbd,
  0xc4, 0x56, 0xeb, 0x3e, 0xf7, 0x23, 0x80, 0x3e, 0x33, 0xd7, 0x8b, 0x3c,
  0xd6, 0x54, 0x8d, 0xbe, 0xe2, 0xfb, 0xff, 0xff, 0x04, 0x00, 0x00, 0x00,
  0x20, 0x01, 0x00, 0x00, 0x9a, 0x0c, 0x77, 0xbe, 0x38, 0xfb, 0xba, 0x3d,
  0x78, 0xf1, 0x1d, 0x3e, 0xe3, 0xb8, 0x0a, 0x3c, 0x72, 0x12, 0x8e, 0x3e,
  0x6b, 0xe9, 0x69, 0xbe, 0x3a, 0x5a, 0x8c, 0xbe, 0x35, 0x29, 0x06, 0xbe,
  0x07, 0x29, 0x2a, 0x3e, 0xc4, 0x15, 0xe9, 0xbd, 0x90, 0x50, 0xc7, 0x3e,
  0xdd, 0xa2, 0xec, 0x3d, 0x59, 0xbd, 0x62, 0xbe, 0x9c, 0xd4, 0xa8, 0xbc,
  0x20, 0xb9, 0xc4, 0x3e, 0x3c, 0x79, 0x8c, 0xbe, 0xc3, 0xd7, 0xfe, 0x3c,
  0xa2, 0xb6, 0xbe, 0xbe, 0xa5, 0xd0, 0x99, 0xbe, 0xfe, 0xe0, 0x0a, 0xbe,
  0x28, 0x2f, 0x6e, 0xbd, 0xb8, 0xc4, 0x6c, 0xbe, 0x26, 0x78, 0xb7, 0xbe,
  0x12, 0x67, 0x40, 0xbe, 0xea, 0x93, 0x09, 0x3e, 0x2e, 0x97, 0xc6, 0xbc,
  0xb0, 0xe9, 0x28, 0x3d, 0x35, 0x60, 0xb9, 0xbe, 0xbb, 0xf9, 0x60, 0xbe,
  0x47, 0x75, 0x04, 0x3e, 0x84, 0x22, 0xd0, 0x3d, 0x04, 0xf2, 0x26, 0xbe,
  0x04, 0x3a, 0x31, 0x3b, 0x03, 0x76, 0x54, 0x3e, 0xce, 0x01, 0xa3, 0x3e,
  0xb2, 0x73, 0x79, 0x3e, 0x9c, 0x3c, 0x41, 0x3e, 0xf0, 0x14, 0x83, 0xbe,
  0xdf, 0xd7, 0xd9, 0x3e, 0xc8, 0x78, 0x53, 0xbe, 0x3f, 0x70, 0xb4, 0x3e,
  0x63, 0x7c, 0x45, 0xbe, 0x57, 0xb1, 0x54, 0xbd, 0xc2, 0x29, 0x9b, 0x3d,
  0x66, 0xd6, 0x25, 0x3e, 0xf5, 0x7a, 0x8b, 0xbd, 0x47, 0xba, 0x9c, 0xbe,
  0x23, 0x93, 0x76, 0xbd, 0xa6, 0x1c, 0xa7, 0xbe, 0x32, 0x4a, 0x09, 0x3d,
  0x62, 0x42, 0x90, 0x3e, 0x6b, 0x56, 0xb7, 0xbd, 0x98, 0x48, 0xd4, 0x3d,
  0x80, 0xac, 0x4f, 0xbe, 0x4d, 0xd3, 0xb8, 0xbd, 0x42, 0x1f, 0xd8, 0xbc,
  0xca, 0xf5, 0x2d, 0xbd, 0xe3, 0xf5, 0x75, 0x3e, 0xd4, 0x3e, 0xb7, 0x3e,
  0xb8, 0x72, 0x7d, 0x3e, 0x79, 0xdc, 0x20, 0xbe, 0xd4, 0x2c, 0x87, 0x3d,
  0x9e, 0x69, 0x5f, 0x3e, 0x5b, 0x83, 0x19, 0x3e, 0xbf, 0x5b, 0x0f, 0xbe,
  0x11, 0xb6, 0xa3, 0xbd, 0x02, 0x9b, 0x7f, 0xbd, 0xe9, 0x0b, 0x9e, 0xbe,
  0xcb, 0x45, 0x57, 0x3e, 0xe2, 0x56, 0x19, 0xbe, 0x89, 0xa0, 0x10, 0xbe,
  0x8c, 0xad, 0x2f, 0x3e, 0x0e, 0xfd, 0xff, 0xff, 0x04, 0x00, 0x00, 0x00,
  0x00, 0x02, 0x00, 0x00, 0x00, 0xea, 0x2c, 0xbe, 0x14, 0xbd, 0x91, 0x3e,
  0x21, 0xb0, 0xe5, 0x3e, 0x2e, 0xb7, 0x08, 0x3f, 0x45, 0xd6, 0xb9, 0x3e,
  0xed, 0x3d, 0xff, 0x3e, 0x0b, 0xd2, 0x10, 0xbf, 0x95, 0x56, 0xda, 0xbd,
  0xd6, 0xb1, 0xbb, 0x3e, 0x35, 0x3b, 0xac, 0xbe, 0x92, 0x3f, 0x0f, 0x3e,
  0x44, 0x6a, 0x18, 0x3d, 0x59, 0xbf, 0xf3, 0x3d, 0x75, 0x54, 0x17, 0xbf,
  0x52, 0xe0, 0x33, 0x3d, 0x1e, 0xfd, 0xbc, 0xbd, 0x6f, 0xbc, 0x9d, 0xbd,
  0x77, 0x3f, 0xe8, 0xbe, 0x41, 0xa5, 0xab, 0x3e, 0xea, 0xd9, 0xa7, 0x3e,
  0x42, 0x06, 0x29, 0x3f, 0xb2, 0x4c, 0x95, 0xbe, 0x7e, 0xac, 0x3b, 0xbe,
  0x65, 0x96, 0xa0, 0xbe, 0x6a, 0x1f, 0xb5, 0x3e, 0x09, 0x6d, 0x1c, 0x3e,
  0x2c, 0x4c, 0xf7, 0x3e, 0x1d, 0x0e, 0x6b, 0xbe, 0xd7, 0xf3, 0x5d, 0xbe,
  0xda, 0x16, 0xd0, 0xbe, 0xd9, 0x7e, 0xf5, 0xbc, 0x52, 0xa7, 0x89, 0xbe,
  0x05, 0x10, 0xc8, 0x3e, 0x29, 0xde, 0x7b, 0xbe, 0x1a, 0x2b, 0xad, 0x3e,
  0x4a, 0x60, 0x55, 0xbe, 0xbd, 0xc0, 0x8d, 0x3e, 0xd2, 0x57, 0x54, 0x3d,
  0x93, 0xdb, 0xe8, 0xbd, 0x58, 0x16, 0xd2, 0xbe, 0xa8, 0x29, 0xc0, 0xbe,
  0x45, 0x05, 0xb7, 0x3c, 0xd7, 0x3f, 0x35, 0x3e, 0xae, 0x36, 0x20, 0xbe,
  0x2e, 0xcd, 0xe6, 0x3e, 0x71, 0x72, 0x46, 0x3e, 0x82, 0x3b, 0x51, 0xbe,
  0x5b, 0x7b, 0xf5, 0xbe, 0x7f, 0x46, 0xaa, 0xbe, 0xac, 0x44, 0xfb, 0x3c,
  0x4c, 0xca, 0xc7, 0xbd, 0x66, 0x6e, 0x55, 0xbd, 0xb0, 0x34, 0xea, 0x3e,
  0x04, 0x3e, 0xbb, 0xbd, 0x89, 0x21, 0xf0, 0xbe, 0x8f, 0xb7, 0xc8, 0xbe,
  0x29, 0xda, 0x70, 0x3e, 0x78, 0xfe, 0xe9, 0x3e, 0x2c, 0x70, 0x36, 0x3e,
  0x71, 0x0e, 0x9a, 0x3e, 0x42, 0x52, 0xcb, 0x3e, 0x31, 0xb7, 0xa6, 0xbd,
  0x22, 0xc9, 0x05, 0xbe, 0xd5, 0x36, 0x2f, 0x3d, 0x63, 0xbc, 0xa3, 0xbe,
  0x33, 0xb5, 0x4a, 0xbe, 0x42, 0xf3, 0xb5, 0x3c, 0x5d, 0x4f, 0x51, 0xbe,
  0xc1, 0xc5, 0x1f, 0xbe, 0x42, 0x4b, 0xdd, 0xbe, 0x6b, 0x57, 0x05, 0x3f,
  0x8f, 0x9a, 0x01, 0xbf, 0x77, 0xc1, 0x4e, 0xbd, 0xed, 0x8d, 0xab, 0x3e,
  0x38, 0x06, 0x84, 0xbe, 0x61, 0x19, 0x98, 0x3e, 0x71, 0x25, 0xe6, 0xbd,
  0x39, 0x83, 0x87, 0x3e, 0xce, 0x8f, 0xcb, 0x3d, 0x32, 0x62, 0x00, 0xbf,
  0x0f, 0xd1, 0x89, 0x3d, 0xdf, 0x48, 0x3d, 0x3e, 0x8e, 0x12, 0x1a, 0x3d,
  0xcd, 0x32, 0xdb, 0xbd, 0x84, 0xf0, 0xea, 0xbe, 0xde, 0xc8, 0x5b, 0xbe,
  0xba, 0xa4, 0x38, 0x3d, 0xb7, 0xc3, 0x3b, 0x3e, 0xe8, 0x9e, 0x2c, 0xbe,
  0x69, 0xcb, 0x3f, 0xbe, 0x44, 0x66, 0xc8, 0x3d, 0xbe, 0x0b, 0x9c, 0x3e,
  0xfc, 0x67, 0xb3, 0xbe, 0x12, 0x87, 0xaa, 0xbc, 0x3a, 0x67, 0xc4, 0x3e,
  0xf7, 0x62, 0x36, 0x3b, 0x06, 0x5c, 0x88, 0xbe, 0x46, 0x9a, 0x51, 0xbe,
  0x87, 0x26, 0x11, 0xbf, 0xe3, 0xd5, 0xf2, 0xbe, 0x08, 0x5d, 0xa2, 0x3e,
  0x8c, 0xc6, 0xc2, 0xbe, 0x85, 0x81, 0x79, 0xbe, 0xc8, 0x41, 0xea, 0xbe,
  0x9e, 0x3e, 0x9f, 0xbd, 0x8c, 0x83, 0xe4, 0x3e, 0x31, 0x73, 0x35, 0xbf,
  0x4b, 0xde, 0x1c, 0x3f, 0xc5, 0xf1, 0x9c, 0xbe, 0x23, 0x0d, 0x61, 0x3e,
  0x4d, 0xc8, 0x8b, 0x3d, 0x33, 0x90, 0xf0, 0xbd, 0xf7, 0xfa, 0x3c, 0x3e,
  0x81, 0x6c, 0x2e, 0x3e, 0x46, 0xfd, 0x14, 0x3e, 0xc9, 0xf3, 0x0d, 0xbf,
  0x77, 0xeb, 0x4c, 0x3e, 0xde, 0x8d, 0xba, 0x3e, 0x51, 0x07, 0x1a, 0x3f,
  0x9a, 0xa1, 0xc9, 0xbd, 0xbe, 0xd1, 0x76, 0xbe, 0xc3, 0x2e, 0xd6, 0xbe,
  0x70, 0x39, 0x9b, 0x3e, 0x84, 0xe5, 0xc0, 0xbe, 0xc4, 0xd3, 0xbf, 0x3e,
  0x29, 0x77, 0x2b, 0x3e, 0xde, 0xda, 0x97, 0xbe, 0x8e, 0x39, 0x77, 0x3e,
  0x1a, 0xff, 0xff, 0xff, 0x04, 0x00, 0x00, 0x00, 0x40, 0x00, 0x00, 0x00,
  0x5a, 0xb1, 0x3e, 0xbd, 0x78, 0xf0, 0xcc, 0x3d, 0x48, 0x1e, 0x13, 0x3e,
  0x61, 0x9d, 0x7d, 0x3d, 0xf5, 0xad, 0xc7, 0x3d, 0xa2, 0xfe, 0x35, 0x3a,
  0xbb, 0xc0, 0xf3, 0x3d, 0x1d, 0x95, 0xac, 0xbd, 0x5a, 0xf3, 0x7f, 0x3c,
  0xce, 0x63, 0xc7, 0xbd, 0x7a, 0xed, 0x8c, 0xbd, 0x20, 0xed, 0x3c, 0xbc,
  0xdb, 0xa4, 0x05, 0xbe, 0x94, 0x9a, 0xfc, 0xbd, 0xec, 0x5d, 0x9c, 0x3d,
  0x22, 0x7f, 0xd6, 0xbd, 0x40, 0xf4, 0xff, 0xff, 0x44, 0xf4, 0xff, 0xff,
  0x0f, 0x00, 0x00, 0x00, 0x4d, 0x4c, 0x49, 0x52, 0x20, 0x43, 0x6f, 0x6e,
  0x76, 0x65, 0x72, 0x74, 0x65, 0x64, 0x2e, 0x00, 0x01, 0x00, 0x00, 0x00,
  0x14, 0x00, 0x00, 0x00, 0x00, 0x00, 0x0e, 0x00, 0x18, 0x00, 0x14, 0x00,
  0x10, 0x00, 0x0c, 0x00, 0x08, 0x00, 0x04, 0x00, 0x0e, 0x00, 0x00, 0x00,
  0x14, 0x00, 0x00, 0x00, 0x1c, 0x00, 0x00, 0x00, 0xbc, 0x02, 0x00, 0x00,
  0xc0, 0x02, 0x00, 0x00, 0xc4, 0x02, 0x00, 0x00, 0x04, 0x00, 0x00, 0x00,
  0x6d, 0x61, 0x69, 0x6e, 0x00, 0x00, 0x00, 0x00, 0x09, 0x00, 0x00, 0x00,
  0x58, 0x02, 0x00, 0x00, 0xf4, 0x01, 0x00, 0x00, 0x94, 0x01, 0x00, 0x00,
  0x34, 0x01, 0x00, 0x00, 0xf0, 0x00, 0x00, 0x00, 0xbc, 0x00, 0x00, 0x00,
  0x78, 0x00, 0x00, 0x00, 0x40, 0x00, 0x00, 0x00, 0x04, 0x00, 0x00, 0x00,
  0x3a, 0xfe, 0xff, 0xff, 0x1c, 0x00, 0x00, 0x00, 0x00, 0x00, 0x00, 0x09,
  0x1c, 0x00, 0x00, 0x00, 0x20, 0x00, 0x00, 0x00, 0x05, 0x00, 0x00, 0x00,
  0x00, 0x00, 0x06, 0x00, 0x08, 0x00, 0x04, 0x00, 0x06, 0x00, 0x00, 0x00,
  0x00, 0x00, 0x80, 0x3f, 0x01, 0x00, 0x00, 0x00, 0x14, 0x00, 0x00, 0x00,
  0x01, 0x00, 0x00, 0x00, 0x13, 0x00, 0x00, 0x00, 0xce, 0xfe, 0xff, 0xff,
  0x14, 0x00, 0x00, 0x00, 0x00, 0x00, 0x00, 0x08, 0x10, 0x00, 0x00, 0x00,
  0x14, 0x00, 0x00, 0x00, 0x04, 0x00, 0x00, 0x00, 0x10, 0xf5, 0xff, 0xff,
  0x01, 0x00, 0x00, 0x00, 0x13, 0x00, 0x00, 0x00, 0x03, 0x00, 0x00, 0x00,
  0x12, 0x00, 0x00, 0x00, 0x04, 0x00, 0x00, 0x00, 0x07, 0x00, 0x00, 0x00,
  0xa6, 0xfe, 0xff, 0xff, 0x1c, 0x00, 0x00, 0x00, 0x00, 0x00, 0x00, 0x08,
  0x1c, 0x00, 0x00, 0x00, 0x20, 0x00, 0x00, 0x00, 0x04, 0x00, 0x00, 0x00,
  0x00, 0x00, 0x06, 0x00, 0x08, 0x00, 0x07, 0x00, 0x06, 0x00, 0x00, 0x00,
  0x00, 0x00, 0x00, 0x01, 0x01, 0x00, 0x00, 0x00, 0x12, 0x00, 0x00, 0x00,
  0x03, 0x00, 0x00, 0x00, 0x11, 0x00, 0x00, 0x00, 0x05, 0x00, 0x00, 0x00,
  0x06, 0x00, 0x00, 0x00, 0x42, 0xff, 0xff, 0xff, 0x14, 0x00, 0x00, 0x00,
  0x00, 0x00, 0x00, 0x1b, 0x10, 0x00, 0x00, 0x00, 0x14, 0x00, 0x00, 0x00,
  0x03, 0x00, 0x00, 0x00, 0x84, 0xf5, 0xff, 0xff, 0x01, 0x00, 0x00, 0x00,
  0x11, 0x00, 0x00, 0x00, 0x02, 0x00, 0x00, 0x00, 0x10, 0x00, 0x00, 0x00,
  0x08, 0x00, 0x00, 0x00, 0x72, 0xff, 0xff, 0xff, 0x14, 0x00, 0x00, 0x00,
  0x00, 0x00, 0x00, 0x05, 0x24, 0x00, 0x00, 0x00, 0x28, 0x00, 0x00, 0x00,
  0x01, 0x00, 0x00, 0x00, 0x06, 0xff, 0xff, 0xff, 0x02, 0x00, 0x00, 0x00,
  0x02, 0x00, 0x00, 0x00, 0x02, 0x00, 0x00, 0x00, 0x02, 0x00, 0x00, 0x00,
  0x00, 0x00, 0x00, 0x01, 0x01, 0x00, 0x00, 0x00, 0x10, 0x00, 0x00, 0x00,
  0x01, 0x00, 0x00, 0x00, 0x0f, 0x00, 0x00, 0x00, 0xf6, 0xfe, 0xff, 0xff,
  0x1c, 0x00, 0x00, 0x00, 0x00, 0x00, 0x00, 0x01, 0x28, 0x00, 0x00, 0x00,
  0x2c, 0x00, 0x00, 0x00, 0x0c, 0x00, 0x14, 0x00, 0x13, 0x00, 0x0c, 0x00,
  0x08, 0x00, 0x07, 0x00, 0x0c, 0x00, 0x00, 0x00, 0x00, 0x00, 0x00, 0x01,
  0x01, 0x00, 0x00, 0x00, 0x01, 0x00, 0x00, 0x00, 0x00, 0x00, 0x00, 0x01,
  0x01, 0x00, 0x00, 0x00, 0x0f, 0x00, 0x00, 0x00, 0x03, 0x00, 0x00, 0x00,
  0x0e, 0x00, 0x00, 0x00, 0x02, 0x00, 0x00, 0x00, 0x01, 0x00, 0x00, 0x00,
  0x00, 0x00, 0x0e, 0x00, 0x18, 0x00, 0x14, 0x00, 0x10, 0x00, 0x0c, 0x00,
  0x0b, 0x00, 0x04, 0x00, 0x0e, 0x00, 0x00, 0x00, 0x20, 0x00, 0x00, 0x00,
  0x00, 0x00, 0x00, 0x02, 0x28, 0x00, 0x00, 0x00, 0x2c, 0x00, 0x00, 0x00,
  0x02, 0x00, 0x00, 0x00, 0x0c, 0x00, 0x10, 0x00, 0x00, 0x00, 0x0c, 0x00,
  0x08, 0x00, 0x04, 0x00, 0x0c, 0x00, 0x00, 0x00, 0x01, 0x00, 0x00, 0x00,
  0x01, 0x00, 0x00, 0x00, 0x01, 0x00, 0x00, 0x00, 0x01, 0x00, 0x00, 0x00,
  0x0e, 0x00, 0x00, 0x00, 0x03, 0x00, 0x00, 0x00, 0x0d, 0x00, 0x00, 0x00,
  0x03, 0x00, 0x00, 0x00, 0x09, 0x00, 0x00, 0x00, 0x00, 0x00, 0x0e, 0x00,
  0x1a, 0x00, 0x14, 0x00, 0x10, 0x00, 0x0c, 0x00, 0x0b, 0x00, 0x04, 0x00,
  0x0e, 0x00, 0x00, 0x00, 0x24, 0x00, 0x00, 0x00, 0x00, 0x00, 0x00, 0x05,
  0x34, 0x00, 0x00, 0x00, 0x38, 0x00, 0x00, 0x00, 0x01, 0x00, 0x00, 0x00,
  0x00, 0x00, 0x0e, 0x00, 0x18, 0x00, 0x17, 0x00, 0x10, 0x00, 0x0c, 0x00,
  0x08, 0x00, 0x04, 0x00, 0x0e, 0x00, 0x00, 0x00, 0x02, 0x00, 0x00, 0x00,
  0x02, 0x00, 0x00, 0x00, 0x02, 0x00, 0x00, 0x00, 0x02, 0x00, 0x00, 0x00,
  0x00, 0x00, 0x00, 0x01, 0x01, 0x00, 0x00, 0x00, 0x0d, 0x00, 0x00, 0x00,
  0x01, 0x00, 0x00, 0x00, 0x0c, 0x00, 0x00, 0x00, 0x00, 0x00, 0x0e, 0x00,
  0x14, 0x00, 0x00, 0x00, 0x10, 0x00, 0x0c, 0x00, 0x0b, 0x00, 0x04, 0x00,
  0x0e, 0x00, 0x00, 0x00, 0x1c, 0x00, 0x00, 0x00, 0x00, 0x00, 0x00, 0x01,
  0x24, 0x00, 0x00, 0x00, 0x28, 0x00, 0x00, 0x00, 0x0c, 0x00, 0x10, 0x00,
  0x00, 0x00, 0x0c, 0x00, 0x08, 0x00, 0x07, 0x00, 0x0c, 0x00, 0x00, 0x00,
  0x00, 0x00, 0x00, 0x01, 0x01, 0x00, 0x00, 0x00, 0x01, 0x00, 0x00, 0x00,
  0x01, 0x00, 0x00, 0x00, 0x0c, 0x00, 0x00, 0x00, 0x03, 0x00, 0x00, 0x00,
  0x00, 0x00, 0x00, 0x00, 0x0a, 0x00, 0x00, 0x00, 0x0b, 0x00, 0x00, 0x00,
  0x01, 0x00, 0x00, 0x00, 0x14, 0x00, 0x00, 0x00, 0x01, 0x00, 0x00, 0x00,
  0x00, 0x00, 0x00, 0x00, 0x15, 0x00, 0x00, 0x00, 0x80, 0x08, 0x00, 0x00,
  0x2c, 0x08, 0x00, 0x00, 0xcc, 0x07, 0x00, 0x00, 0x84, 0x07, 0x00, 0x00,
  0x44, 0x07, 0x00, 0x00, 0x04, 0x07, 0x00, 0x00, 0xc8, 0x06, 0x00, 0x00,
  0x8c, 0x06, 0x00, 0x00, 0x1c, 0x06, 0x00, 0x00, 0xc8, 0x05, 0x00, 0x00,
  0x6c, 0x05, 0x00, 0x00, 0xe4, 0x04, 0x00, 0x00, 0x34, 0x04, 0x00, 0x00,
  0xbc, 0x03, 0x00, 0x00, 0x30, 0x03, 0x00, 0x00, 0x60, 0x02, 0x00, 0x00,
  0xe4, 0x01, 0x00, 0x00, 0x74, 0x01, 0x00, 0x00, 0xe0, 0x00, 0x00, 0x00,
  0x60, 0x00, 0x00, 0x00, 0x04, 0x00, 0x00, 0x00, 0xea, 0xf7, 0xff, 0xff,
  0x00, 0x00, 0x00, 0x01, 0x14, 0x00, 0x00, 0x00, 0x1c, 0x00, 0x00, 0x00,
  0x1c, 0x00, 0x00, 0x00, 0x15, 0x00, 0x00, 0x00, 0x34, 0x00, 0x00, 0x00,
  0x02, 0x00, 0x00, 0x00, 0xff, 0xff, 0xff, 0xff, 0x04, 0x00, 0x00, 0x00,
  0xcc, 0xf7, 0xff, 0xff, 0x1b, 0x00, 0x00, 0x00, 0x53, 0x74, 0x61, 0x74,
  0x65, 0x66, 0x75, 0x6c, 0x50, 0x61, 0x72, 0x74, 0x69, 0x74, 0x69, 0x6f,
  0x6e, 0x65, 0x64, 0x43, 0x61, 0x6c, 0x6c, 0x5f, 0x31, 0x3a, 0x30, 0x00,
  0x02, 0x00, 0x00, 0x00, 0x01, 0x00, 0x00, 0x00, 0x04, 0x00, 0x00, 0x00,
  0x42, 0xf8, 0xff, 0xff, 0x00, 0x00, 0x00, 0x01, 0x14, 0x00, 0x00, 0x00,
  0x1c, 0x00, 0x00, 0x00, 0x1c, 0x00, 0x00, 0x00, 0x14, 0x00, 0x00, 0x00,
  0x58, 0x00, 0x00, 0x00, 0x02, 0x00, 0x00, 0x00, 0xff, 0xff, 0xff, 0xff,
  0x04, 0x00, 0x00, 0x00, 0x24, 0xf8, 0xff, 0xff, 0x3c, 0x00, 0x00, 0x00,
  0x73, 0x65, 0x71, 0x75, 0x65, 0x6e, 0x74, 0x69, 0x61, 0x6c, 0x5f, 0x31,
  0x2f, 0x64, 0x65, 0x6e, 0x73, 0x65, 0x5f, 0x31, 0x5f, 0x32, 0x2f, 0x4d,
  0x61, 0x74, 0x4d, 0x75, 0x6c, 0x3b, 0x73, 0x65, 0x71, 0x75, 0x65, 0x6e,
  0x74, 0x69, 0x61, 0x6c, 0x5f, 0x31, 0x2f, 0x64, 0x65, 0x6e, 0x73, 0x65,
  0x5f, 0x31, 0x5f, 0x32, 0x2f, 0x42, 0x69, 0x61, 0x73, 0x41, 0x64, 0x64,
  0x00, 0x00, 0x00, 0x00, 0x02, 0x00, 0x00, 0x00, 0x01, 0x00, 0x00, 0x00,
  0x04, 0x00, 0x00, 0x00, 0xbe, 0xf8, 0xff, 0xff, 0x00, 0x00, 0x00, 0x01,
  0x14, 0x00, 0x00, 0x00, 0x1c, 0x00, 0x00, 0x00, 0x1c, 0x00, 0x00, 0x00,
  0x13, 0x00, 0x00, 0x00, 0x6c, 0x00, 0x00, 0x00, 0x02, 0x00, 0x00, 0x00,
  0xff, 0xff, 0xff, 0xff, 0x10, 0x00, 0x00, 0x00, 0xa0, 0xf8, 0xff, 0xff,
  0x52, 0x00, 0x00, 0x00, 0x73, 0x65, 0x71, 0x75, 0x65, 0x6e, 0x74, 0x69,
  0x61, 0x6c, 0x5f, 0x31, 0x2f, 0x64, 0x65, 0x6e, 0x73, 0x65, 0x5f, 0x31,
  0x2f, 0x4d, 0x61, 0x74, 0x4d, 0x75, 0x6c, 0x3b, 0x73, 0x65, 0x71, 0x75,
  0x65, 0x6e, 0x74, 0x69, 0x61, 0x6c, 0x5f, 0x31, 0x2f, 0x64, 0x65, 0x6e,
  0x73, 0x65, 0x5f, 0x31, 0x2f, 0x52, 0x65, 0x6c, 0x75, 0x3b, 0x73, 0x65,
  0x71, 0x75, 0x65, 0x6e, 0x74, 0x69, 0x61, 0x6c, 0x5f, 0x31, 0x2f, 0x64,
  0x65, 0x6e, 0x73, 0x65, 0x5f, 0x31, 0x2f, 0x42, 0x69, 0x61, 0x73, 0x41,
  0x64, 0x64, 0x00, 0x00, 0x02, 0x00, 0x00, 0x00, 0x01, 0x00, 0x00, 0x00,
  0x10, 0x00, 0x00, 0x00, 0x4e, 0xf9, 0xff, 0xff, 0x00, 0x00, 0x00, 0x01,
  0x14, 0x00, 0x00, 0x00, 0x1c, 0x00, 0x00, 0x00, 0x1c, 0x00, 0x00, 0x00,
  0x12, 0x00, 0x00, 0x00, 0x48, 0x00, 0x00, 0x00, 0x02, 0x00, 0x00, 0x00,
  0xff, 0xff, 0xff, 0xff, 0x10, 0x00, 0x00, 0x00, 0x30, 0xf9, 0xff, 0xff,
  0x2c, 0x00, 0x00, 0x00, 0x73, 0x65, 0x71, 0x75, 0x65, 0x6e, 0x74, 0x69,
  0x61, 0x6c, 0x5f, 0x31, 0x2f, 0x67, 0x6c, 0x6f, 0x62, 0x61, 0x6c, 0x5f,
  0x61, 0x76, 0x65, 0x72, 0x61, 0x67, 0x65, 0x5f, 0x70, 0x6f, 0x6f, 0x6c,
  0x69, 0x6e, 0x67, 0x32, 0x64, 0x5f, 0x31, 0x2f, 0x4d, 0x65, 0x61, 0x6e,
  0x00, 0x00, 0x00, 0x00, 0x02, 0x00, 0x00, 0x00, 0x01, 0x00, 0x00, 0x00,
  0x10, 0x00, 0x00, 0x00, 0xba, 0xf9, 0xff, 0xff, 0x00, 0x00, 0x00, 0x01,
  0x14, 0x00, 0x00, 0x00, 0x24, 0x00, 0x00, 0x00, 0x24, 0x00, 0x00, 0x00,
  0x11, 0x00, 0x00, 0x00, 0x4c, 0x00, 0x00, 0x00, 0x04, 0x00, 0x00, 0x00,
  0xff, 0xff, 0xff, 0xff, 0x1e, 0x00, 0x00, 0x00, 0x03, 0x00, 0x00, 0x00,
  0x10, 0x00, 0x00, 0x00, 0xa4, 0xf9, 0xff, 0xff, 0x28, 0x00, 0x00, 0x00,
  0x73, 0x65, 0x71, 0x75, 0x65, 0x6e, 0x74, 0x69, 0x61, 0x6c, 0x5f, 0x31,
  0x2f, 0x6d, 0x61, 0x78, 0x5f, 0x70, 0x6f, 0x6f, 0x6c, 0x69, 0x6e, 0x67,
  0x32, 0x64, 0x5f, 0x31, 0x5f, 0x32, 0x2f, 0x4d, 0x61, 0x78, 0x50, 0x6f,
  0x6f, 0x6c, 0x32, 0x64, 0x00, 0x00, 0x00, 0x00, 0x04, 0x00, 0x00, 0x00,
  0x01, 0x00, 0x00, 0x00, 0x1e, 0x00, 0x00, 0x00, 0x03, 0x00, 0x00, 0x00,
  0x10, 0x00, 0x00, 0x00, 0x32, 0xfa, 0xff, 0xff, 0x00, 0x00, 0x00, 0x01,
  0x14, 0x00, 0x00, 0x00, 0x24, 0x00, 0x00, 0x00, 0x24, 0x00, 0x00, 0x00,
  0x10, 0x00, 0x00, 0x00, 0xa0, 0x00, 0x00, 0x00, 0x04, 0x00, 0x00, 0x00,
  0xff, 0xff, 0xff, 0xff, 0x3d, 0x00, 0x00, 0x00, 0x06, 0x00, 0x00, 0x00,
  0x10, 0x00, 0x00, 0x00, 0x1c, 0xfa, 0xff, 0xff, 0x7e, 0x00, 0x00, 0x00,
  0x73, 0x65, 0x71, 0x75, 0x65, 0x6e, 0x74, 0x69, 0x61, 0x6c, 0x5f, 0x31,
  0x2f, 0x73, 0x65, 0x70, 0x61, 0x72, 0x61, 0x62, 0x6c, 0x65, 0x5f, 0x63,
  0x6f, 0x6e, 0x76, 0x32, 0x64, 0x5f, 0x31, 0x2f, 0x52, 0x65, 0x6c, 0x75,
  0x3b, 0x73, 0x65, 0x71, 0x75, 0x65, 0x6e, 0x74, 0x69, 0x61, 0x6c, 0x5f,
  0x31, 0x2f, 0x73, 0x65, 0x70, 0x61, 0x72, 0x61, 0x62, 0x6c, 0x65, 0x5f,
  0x63, 0x6f, 0x6e, 0x76, 0x32, 0x64, 0x5f, 0x31, 0x2f, 0x42, 0x69, 0x61,
  0x73, 0x41, 0x64, 0x64, 0x3b, 0x73, 0x65, 0x71, 0x75, 0x65, 0x6e, 0x74,
  0x69, 0x61, 0x6c, 0x5f, 0x31, 0x2f, 0x73, 0x65, 0x70, 0x61, 0x72, 0x61,
  0x62, 0x6c, 0x65, 0x5f, 0x63, 0x6f, 0x6e, 0x76, 0x32, 0x64, 0x5f, 0x31,
  0x2f, 0x73, 0x65, 0x70, 0x61, 0x72, 0x61, 0x62, 0x6c, 0x65, 0x5f, 0x63,
  0x6f, 0x6e, 0x76, 0x32, 0x64, 0x3b, 0x00, 0x00, 0x04, 0x00, 0x00, 0x00,
  0x01, 0x00, 0x00, 0x00, 0x3d, 0x00, 0x00, 0x00, 0x06, 0x00, 0x00, 0x00,
  0x10, 0x00, 0x00, 0x00, 0xfe, 0xfa, 0xff, 0xff, 0x00, 0x00, 0x00, 0x01,
  0x14, 0x00, 0x00, 0x00, 0x24, 0x00, 0x00, 0x00, 0x24, 0x00, 0x00, 0x00,
  0x0f, 0x00, 0x00, 0x00, 0x5c, 0x00, 0x00, 0x00, 0x04, 0x00, 0x00, 0x00,
  0xff, 0xff, 0xff, 0xff, 0x3d, 0x00, 0x00, 0x00, 0x06, 0x00, 0x00, 0x00,
  0x08, 0x00, 0x00, 0x00, 0xe8, 0xfa, 0xff, 0xff, 0x3a, 0x00, 0x00, 0x00,
  0x73, 0x65, 0x71, 0x75, 0x65, 0x6e, 0x74, 0x69, 0x61, 0x6c, 0x5f, 0x31,
  0x2f, 0x73, 0x65, 0x70, 0x61, 0x72, 0x61, 0x62, 0x6c, 0x65, 0x5f, 0x63,
  0x6f, 0x6e, 0x76, 0x32, 0x64, 0x5f, 0x31, 0x2f, 0x73, 0x65, 0x70, 0x61,
  0x72, 0x61, 0x62, 0x6c, 0x65, 0x5f, 0x63, 0x6f, 0x6e, 0x76, 0x32, 0x64,
  0x2f, 0x64, 0x65, 0x70, 0x74, 0x68, 0x77, 0x69, 0x73, 0x65, 0x00, 0x00,
  0x04, 0x00, 0x00, 0x00, 0x01, 0x00, 0x00, 0x00, 0x3d, 0x00, 0x00, 0x00,
  0x06, 0x00, 0x00, 0x00, 0x08, 0x00, 0x00, 0x00, 0x86, 0xfb, 0xff, 0xff,
  0x00, 0x00, 0x00, 0x01, 0x14, 0x00, 0x00, 0x00, 0x24, 0x00, 0x00, 0x00,
  0x24, 0x00, 0x00, 0x00, 0x0e, 0x00, 0x00, 0x00, 0x48, 0x00, 0x00, 0x00,
  0x04, 0x00, 0x00, 0x00, 0xff, 0xff, 0xff, 0xff, 0x3d, 0x00, 0x00, 0x00,
  0x06, 0x00, 0x00, 0x00, 0x08, 0x00, 0x00, 0x00, 0x70, 0xfb, 0xff, 0xff,
  0x26, 0x00, 0x00, 0x00, 0x73, 0x65, 0x71, 0x75, 0x65, 0x6e, 0x74, 0x69,
  0x61, 0x6c, 0x5f, 0x31, 0x2f, 0x6d, 0x61, 0x78, 0x5f, 0x70, 0x6f, 0x6f,
  0x6c, 0x69, 0x6e, 0x67, 0x32, 0x64, 0x5f, 0x31, 0x2f, 0x4d, 0x61, 0x78,
  0x50, 0x6f, 0x6f, 0x6c, 0x32, 0x64, 0x00, 0x00, 0x04, 0x00, 0x00, 0x00,
  0x01, 0x00, 0x00, 0x00, 0x3d, 0x00, 0x00, 0x00, 0x06, 0x00, 0x00, 0x00,
  0x08, 0x00, 0x00, 0x00, 0xfa, 0xfb, 0xff, 0xff, 0x00, 0x00, 0x00, 0x01,
  0x14, 0x00, 0x00, 0x00, 0x24, 0x00, 0x00, 0x00, 0x24, 0x00, 0x00, 0x00,
  0x0d, 0x00, 0x00, 0x00, 0x80, 0x00, 0x00, 0x00, 0x04, 0x00, 0x00, 0x00,
  0xff, 0xff, 0xff, 0xff, 0x7b, 0x00, 0x00, 0x00, 0x0d, 0x00, 0x00, 0x00,
  0x08, 0x00, 0x00, 0x00, 0xe4, 0xfb, 0xff, 0xff, 0x5c, 0x00, 0x00, 0x00,
  0x73, 0x65, 0x71, 0x75, 0x65, 0x6e, 0x74, 0x69, 0x61, 0x6c, 0x5f, 0x31,
  0x2f, 0x63, 0x6f, 0x6e, 0x76, 0x32, 0x64, 0x5f, 0x31, 0x2f, 0x52, 0x65,
  0x6c, 0x75, 0x3b, 0x73, 0x65, 0x71, 0x75, 0x65, 0x6e, 0x74, 0x69, 0x61,
  0x6c, 0x5f, 0x31, 0x2f, 0x63, 0x6f, 0x6e, 0x76, 0x32, 0x64, 0x5f, 0x31,
  0x2f, 0x42, 0x69, 0x61, 0x73, 0x41, 0x64, 0x64, 0x3b, 0x73, 0x65, 0x71,
  0x75, 0x65, 0x6e, 0x74, 0x69, 0x61, 0x6c, 0x5f, 0x31, 0x2f, 0x63, 0x6f,
  0x6e, 0x76, 0x32, 0x64, 0x5f, 0x31, 0x2f, 0x63, 0x6f, 0x6e, 0x76, 0x6f,
  0x6c, 0x75, 0x74, 0x69, 0x6f, 0x6e, 0x3b, 0x31, 0x00, 0x00, 0x00, 0x00,
  0x04, 0x00, 0x00, 0x00, 0x01, 0x00, 0x00, 0x00, 0x7b, 0x00, 0x00, 0x00,
  0x0d, 0x00, 0x00, 0x00, 0x08, 0x00, 0x00, 0x00, 0xf6, 0xfc, 0xff, 0xff,
  0x00, 0x00, 0x00, 0x01, 0x10, 0x00, 0x00, 0x00, 0x10, 0x00, 0x00, 0x00,
  0x0c, 0x00, 0x00, 0x00, 0x68, 0x00, 0x00, 0x00, 0x78, 0xfc, 0xff, 0xff,
  0x5b, 0x00, 0x00, 0x00, 0x73, 0x65, 0x71, 0x75, 0x65, 0x6e, 0x74, 0x69,
  0x61, 0x6c, 0x5f, 0x31, 0x2f, 0x63, 0x6f, 0x6e, 0x76, 0x32, 0x64, 0x5f,
  0x31, 0x2f, 0x52, 0x65, 0x6c, 0x75, 0x3b, 0x73, 0x65, 0x71, 0x75, 0x65,
  0x6e, 0x74, 0x69, 0x61, 0x6c, 0x5f, 0x31, 0x2f, 0x63, 0x6f, 0x6e, 0x76,
  0x32, 0x64, 0x5f, 0x31, 0x2f, 0x42, 0x69, 0x61, 0x73, 0x41, 0x64, 0x64,
  0x3b, 0x73, 0x65, 0x71, 0x75, 0x65, 0x6e, 0x74, 0x69, 0x61, 0x6c, 0x5f,
  0x31, 0x2f, 0x63, 0x6f, 0x6e, 0x76, 0x32, 0x64, 0x5f, 0x31, 0x2f, 0x63,
  0x6f, 0x6e, 0x76, 0x6f, 0x6c, 0x75, 0x74, 0x69, 0x6f, 0x6e, 0x3b, 0x00,
  0x01, 0x00, 0x00, 0x00, 0x08, 0x00, 0x00, 0x00, 0x7a, 0xfd, 0xff, 0xff,
  0x00, 0x00, 0x00, 0x01, 0x10, 0x00, 0x00, 0x00, 0x10, 0x00, 0x00, 0x00,
  0x0b, 0x00, 0x00, 0x00, 0x30, 0x00, 0x00, 0x00, 0xfc, 0xfc, 0xff, 0xff,
  0x21, 0x00, 0x00, 0x00, 0x73, 0x65, 0x71, 0x75, 0x65, 0x6e, 0x74, 0x69,
  0x61, 0x6c, 0x5f, 0x31, 0x2f, 0x63, 0x6f, 0x6e, 0x76, 0x32, 0x64, 0x5f,
  0x31, 0x2f, 0x63, 0x6f, 0x6e, 0x76, 0x6f, 0x6c, 0x75, 0x74, 0x69, 0x6f,
  0x6e, 0x00, 0x00, 0x00, 0x04, 0x00, 0x00, 0x00, 0x08, 0x00, 0x00, 0x00,
  0x03, 0x00, 0x00, 0x00, 0x03, 0x00, 0x00, 0x00, 0x01, 0x00, 0x00, 0x00,
  0xd2, 0xfd, 0xff, 0xff, 0x00, 0x00, 0x00, 0x01, 0x10, 0x00, 0x00, 0x00,
  0x10, 0x00, 0x00, 0x00, 0x0a, 0x00, 0x00, 0x00, 0x1c, 0x00, 0x00, 0x00,
  0x54, 0xfd, 0xff, 0xff, 0x0f, 0x00, 0x00, 0x00, 0x61, 0x72, 0x69, 0x74,
  0x68, 0x2e, 0x63, 0x6f, 0x6e, 0x73, 0x74, 0x61, 0x6e, 0x74, 0x37, 0x00,
  0x01, 0x00, 0x00, 0x00, 0x08, 0x00, 0x00, 0x00, 0x00, 0x00, 0x16, 0x00,
  0x1c, 0x00, 0x18, 0x00, 0x17, 0x00, 0x10, 0x00, 0x0c, 0x00, 0x08, 0x00,
  0x00, 0x00, 0x00, 0x00, 0x00, 0x00, 0x07, 0x00, 0x16, 0x00, 0x00, 0x00,
  0x00, 0x00, 0x00, 0x01, 0x14, 0x00, 0x00, 0x00, 0x14, 0x00, 0x00, 0x00,
  0x09, 0x00, 0x00, 0x00, 0x00, 0x00, 0x00, 0x02, 0x4c, 0x00, 0x00, 0x00,
  0xa8, 0xfd, 0xff, 0xff, 0x3e, 0x00, 0x00, 0x00, 0x73, 0x65, 0x71, 0x75,
  0x65, 0x6e, 0x74, 0x69, 0x61, 0x6c, 0x5f, 0x31, 0x2f, 0x67, 0x6c, 0x6f,
  0x62, 0x61, 0x6c, 0x5f, 0x61, 0x76, 0x65, 0x72, 0x61, 0x67, 0x65, 0x5f,
  0x70, 0x6f, 0x6f, 0x6c, 0x69, 0x6e, 0x67, 0x32, 0x64, 0x5f, 0x31, 0x2f,
  0x4d, 0x65, 0x61, 0x6e, 0x2f, 0x72, 0x65, 0x64, 0x75, 0x63, 0x74, 0x69,
  0x6f, 0x6e, 0x5f, 0x69, 0x6e, 0x64, 0x69, 0x63, 0x65, 0x73, 0x00, 0x00,
  0x01, 0x00, 0x00, 0x00, 0x02, 0x00, 0x00, 0x00, 0x8e, 0xfe, 0xff, 0xff,
  0x00, 0x00, 0x00, 0x01, 0x10, 0x00, 0x00, 0x00, 0x10, 0x00, 0x00, 0x00,
  0x08, 0x00, 0x00, 0x00, 0x1c, 0x00, 0x00, 0x00, 0x10, 0xfe, 0xff, 0xff,
  0x0f, 0x00, 0x00, 0x00, 0x61, 0x72, 0x69, 0x74, 0x68, 0x2e, 0x63, 0x6f,
  0x6e, 0x73, 0x74, 0x61, 0x6e, 0x74, 0x36, 0x00, 0x01, 0x00, 0x00, 0x00,
  0x04, 0x00, 0x00, 0x00, 0xc6, 0xfe, 0xff, 0xff, 0x00, 0x00, 0x00, 0x01,
  0x10, 0x00, 0x00, 0x00, 0x10, 0x00, 0x00, 0x00, 0x07, 0x00, 0x00, 0x00,
  0x1c, 0x00, 0x00, 0x00, 0x48, 0xfe, 0xff, 0xff, 0x0f, 0x00, 0x00, 0x00,
  0x61, 0x72, 0x69, 0x74, 0x68, 0x2e, 0x63, 0x6f, 0x6e, 0x73, 0x74, 0x61,
  0x6e, 0x74, 0x35, 0x00, 0x01, 0x00, 0x00, 0x00, 0x10, 0x00, 0x00, 0x00,
  0xfe, 0xfe, 0xff, 0xff, 0x00, 0x00, 0x00, 0x01, 0x10, 0x00, 0x00, 0x00,
  0x10, 0x00, 0x00, 0x00, 0x06, 0x00, 0x00, 0x00, 0x1c, 0x00, 0x00, 0x00,
  0x80, 0xfe, 0xff, 0xff, 0x0f, 0x00, 0x00, 0x00, 0x61, 0x72, 0x69, 0x74,
  0x68, 0x2e, 0x63, 0x6f, 0x6e, 0x73, 0x74, 0x61, 0x6e, 0x74, 0x34, 0x00,
  0x02, 0x00, 0x00, 0x00, 0x10, 0x00, 0x00, 0x00, 0x10, 0x00, 0x00, 0x00,
  0x3a, 0xff, 0xff, 0xff, 0x00, 0x00, 0x00, 0x01, 0x10, 0x00, 0x00, 0x00,
  0x10, 0x00, 0x00, 0x00, 0x05, 0x00, 0x00, 0x00, 0x1c, 0x00, 0x00, 0x00,
  0xbc, 0xfe, 0xff, 0xff, 0x0f, 0x00, 0x00, 0x00, 0x61, 0x72, 0x69, 0x74,
  0x68, 0x2e, 0x63, 0x6f, 0x6e, 0x73, 0x74, 0x61, 0x6e, 0x74, 0x33, 0x00,
  0x02, 0x00, 0x00, 0x00, 0x04, 0x00, 0x00, 0x00, 0x10, 0x00, 0x00, 0x00,
  0x76, 0xff, 0xff, 0xff, 0x00, 0x00, 0x00, 0x01, 0x10, 0x00, 0x00, 0x00,
  0x10, 0x00, 0x00, 0x00, 0x04, 0x00, 0x00, 0x00, 0x1c, 0x00, 0x00, 0x00,
  0xf8, 0xfe, 0xff, 0xff, 0x0f, 0x00, 0x00, 0x00, 0x61, 0x72, 0x69, 0x74,
  0x68, 0x2e, 0x63, 0x6f, 0x6e, 0x73, 0x74, 0x61, 0x6e, 0x74, 0x32, 0x00,
  0x04, 0x00, 0x00, 0x00, 0x01, 0x00, 0x00, 0x00, 0x03, 0x00, 0x00, 0x00,
  0x03, 0x00, 0x00, 0x00, 0x08, 0x00, 0x00, 0x00, 0xba, 0xff, 0xff, 0xff,
  0x00, 0x00, 0x00, 0x01, 0x10, 0x00, 0x00, 0x00, 0x10, 0x00, 0x00, 0x00,
  0x03, 0x00, 0x00, 0x00, 0x1c, 0x00, 0x00, 0x00, 0x3c, 0xff, 0xff, 0xff,
  0x0f, 0x00, 0x00, 0x00, 0x61, 0x72, 0x69, 0x74, 0x68, 0x2e, 0x63, 0x6f,
  0x6e, 0x73, 0x74, 0x61, 0x6e, 0x74, 0x31, 0x00, 0x04, 0x00, 0x00, 0x00,
  0x10, 0x00, 0x00, 0x00, 0x01, 0x00, 0x00, 0x00, 0x01, 0x00, 0x00, 0x00,
  0x08, 0x00, 0x00, 0x00, 0x00, 0x00, 0x16, 0x00, 0x18, 0x00, 0x14, 0x00,
  0x00, 0x00, 0x10, 0x00, 0x0c, 0x00, 0x08, 0x00, 0x00, 0x00, 0x00, 0x00,
  0x00, 0x00, 0x07, 0x00, 0x16, 0x00, 0x00, 0x00, 0x00, 0x00, 0x00, 0x01,
  0x10, 0x00, 0x00, 0x00, 0x10, 0x00, 0x00, 0x00, 0x02, 0x00, 0x00, 0x00,
  0x1c, 0x00, 0x00, 0x00, 0x98, 0xff, 0xff, 0xff, 0x0e, 0x00, 0x00, 0x00,
  0x61, 0x72, 0x69, 0x74, 0x68, 0x2e, 0x63, 0x6f, 0x6e, 0x73, 0x74, 0x61,
  0x6e, 0x74, 0x00, 0x00, 0x01, 0x00, 0x00, 0x00, 0x10, 0x00, 0x00, 0x00,
  0x00, 0x00, 0x16, 0x00, 0x1c, 0x00, 0x18, 0x00, 0x00, 0x00, 0x14, 0x00,
  0x10, 0x00, 0x0c, 0x00, 0x00, 0x00, 0x00, 0x00, 0x08, 0x00, 0x07, 0x00,
  0x16, 0x00, 0x00, 0x00, 0x00, 0x00, 0x00, 0x01, 0x14, 0x00, 0x00, 0x00,
  0x28, 0x00, 0x00, 0x00, 0x28, 0x00, 0x00, 0x00, 0x01, 0x00, 0x00, 0x00,
  0x44, 0x00, 0x00, 0x00, 0x04, 0x00, 0x00, 0x00, 0xff, 0xff, 0xff, 0xff,
  0x7b, 0x00, 0x00, 0x00, 0x0d, 0x00, 0x00, 0x00, 0x01, 0x00, 0x00, 0x00,
  0x04, 0x00, 0x04, 0x00, 0x04, 0x00, 0x00, 0x00, 0x1e, 0x00, 0x00, 0x00,
  0x73, 0x65, 0x72, 0x76, 0x69, 0x6e, 0x67, 0x5f, 0x64, 0x65, 0x66, 0x61,
  0x75, 0x6c, 0x74, 0x5f, 0x6b, 0x65, 0x72, 0x61, 0x73, 0x5f, 0x74, 0x65,
  0x6e, 0x73, 0x6f, 0x72, 0x3a, 0x30, 0x00, 0x00, 0x04, 0x00, 0x00, 0x00,
  0x01, 0x00, 0x00, 0x00, 0x7b, 0x00, 0x00, 0x00, 0x0d, 0x00, 0x00, 0x00,
  0x01, 0x00, 0x00, 0x00, 0x06, 0x00, 0x00, 0x00, 0x60, 0x00, 0x00, 0x00,
  0x44, 0x00, 0x00, 0x00, 0x34, 0x00, 0x00, 0x00, 0x24, 0x00, 0x00, 0x00,
  0x14, 0x00, 0x00, 0x00, 0x04, 0x00, 0x00, 0x00, 0xc4, 0xff, 0xff, 0xff,
  0x19, 0x00, 0x00, 0x00, 0x00, 0x00, 0x00, 0x19, 0xd0, 0xff, 0xff, 0xff,
  0x09, 0x00, 0x00, 0x00, 0x00, 0x00, 0x00, 0x09, 0xdc, 0xff, 0xff, 0xff,
  0x28, 0x00, 0x00, 0x00, 0x00, 0x00, 0x00, 0x28, 0xe8, 0xff, 0xff, 0xff,
  0x04, 0x00, 0x00, 0x00, 0x00, 0x00, 0x00, 0x04, 0xf4, 0xff, 0xff, 0xff,
  0x11, 0x00, 0x00, 0x00, 0x00, 0x00, 0x00, 0x11, 0x0c, 0x00, 0x0c, 0x00,
  0x0b, 0x00, 0x00, 0x00, 0x00, 0x00, 0x04, 0x00, 0x0c, 0x00, 0x00, 0x00,
  0x03, 0x00, 0x00, 0x00, 0x00, 0x00, 0x00, 0x03
};
